00000000
ce0e8f87
9e087565
71c62633
4afb0ccc
2b24ceb8
137ca186
04eb4180
00000000
04eb4180
137ca186
2b24ceb8
4afb0ccc
71c62633
9e087565
ce0e8f87
00000000
31f17079
61f78a9b
8e39d9cd
b504f334
d4db3148
ec835e7a
fb14be80
00000000
fb14be80
ec835e7a
d4db3148
b504f334
8e39d9cd
61f78a9b
31f17079
